unsigned char model_tflite[] = {
  0x1c, 0x00, 0x00, 0x00, 0x54, 0x46, 0x4c, 0x33, 0x14, 0x00, 0x20, 0x00,
  0x1c, 0x00, 0x18, 0x00, 0x14, 0x00, 0x10, 0x00, 0x0c, 0x00, 0x00, 0x00,
  0x08, 0x00, 0x04, 0x00, 0x14, 0x00, 0x00, 0x00, 0x1c, 0x00, 0x00, 0x00,
  0x98, 0x00, 0x00, 0x00, 0xf0, 0x00, 0x00, 0x00, 0x04, 0x0b, 0x00, 0x00,
  0x14, 0x0b, 0x00, 0x00, 0x2c, 0x12, 0x00, 0x00, 0x03, 0x00, 0x00, 0x00,
  0x01, 0x00, 0x00, 0x00, 0x10, 0x00, 0x00, 0x00, 0x00, 0x00, 0x0a, 0x00,
  0x10, 0x00, 0x0c, 0x00, 0x08, 0x00, 0x04, 0x00, 0x0a, 0x00, 0x00, 0x00,
  0x0c, 0x00, 0x00, 0x00, 0x1c, 0x00, 0x00, 0x00, 0x3c, 0x00, 0x00, 0x00,
  0x0f, 0x00, 0x00, 0x00, 0x73, 0x65, 0x72, 0x76, 0x69, 0x6e, 0x67, 0x5f,
  0x64, 0x65, 0x66, 0x61, 0x75, 0x6c, 0x74, 0x00, 0x01, 0x00, 0x00, 0x00,
  0x04, 0x00, 0x00, 0x00, 0x90, 0xff, 0xff, 0xff, 0x0d, 0x00, 0x00, 0x00,
  0x04, 0x00, 0x00, 0x00, 0x08, 0x00, 0x00, 0x00, 0x6f, 0x75, 0x74, 0x70,
  0x75, 0x74, 0x5f, 0x30, 0x00, 0x00, 0x00, 0x00, 0x01, 0x00, 0x00, 0x00,
  0x04, 0x00, 0x00, 0x00, 0xde, 0xf4, 0xff, 0xff, 0x04, 0x00, 0x00, 0x00,
  0x0e, 0x00, 0x00, 0x00, 0x6b, 0x65, 0x72, 0x61, 0x73, 0x5f, 0x74, 0x65,
  0x6e, 0x73, 0x6f, 0x72, 0x5f, 0x38, 0x00, 0x00, 0x02, 0x00, 0x00, 0x00,
  0x34, 0x00, 0x00, 0x00, 0x04, 0x00, 0x00, 0x00, 0xdc, 0xff, 0xff, 0xff,
  0x10, 0x00, 0x00, 0x00, 0x04, 0x00, 0x00, 0x00, 0x13, 0x00, 0x00, 0x00,
  0x43, 0x4f, 0x4e, 0x56, 0x45, 0x52, 0x53, 0x49, 0x4f, 0x4e, 0x5f, 0x4d,
  0x45, 0x54, 0x41, 0x44, 0x41, 0x54, 0x41, 0x00, 0x08, 0x00, 0x0c, 0x00,
  0x08, 0x00, 0x04, 0x00, 0x08, 0x00, 0x00, 0x00, 0x0f, 0x00, 0x00, 0x00,
  0x04, 0x00, 0x00, 0x00, 0x13, 0x00, 0x00, 0x00, 0x6d, 0x69, 0x6e, 0x5f,
  0x72, 0x75, 0x6e, 0x74, 0x69, 0x6d, 0x65, 0x5f, 0x76, 0x65, 0x72, 0x73,
  0x69, 0x6f, 0x6e, 0x00, 0x11, 0x00, 0x00, 0x00, 0x10, 0x0a, 0x00, 0x00,
  0x08, 0x0a, 0x00, 0x00, 0x98, 0x09, 0x00, 0x00, 0x88, 0x07, 0x00, 0x00,
  0x78, 0x03, 0x00, 0x00, 0x5c, 0x03, 0x00, 0x00, 0x2c, 0x03, 0x00, 0x00,
  0xdc, 0x02, 0x00, 0x00, 0x8c, 0x02, 0x00, 0x00, 0xbc, 0x00, 0x00, 0x00,
  0xb4, 0x00, 0x00, 0x00, 0xac, 0x00, 0x00, 0x00, 0xa4, 0x00, 0x00, 0x00,
  0x9c, 0x00, 0x00, 0x00, 0x94, 0x00, 0x00, 0x00, 0x74, 0x00, 0x00, 0x00,
  0x04, 0x00, 0x00, 0x00, 0x9e, 0xf5, 0xff, 0xff, 0x04, 0x00, 0x00, 0x00,
  0x60, 0x00, 0x00, 0x00, 0x10, 0x00, 0x00, 0x00, 0x00, 0x00, 0x00, 0x00,
  0x08, 0x00, 0x0e, 0x00, 0x08, 0x00, 0x04, 0x00, 0x08, 0x00, 0x00, 0x00,
  0x10, 0x00, 0x00, 0x00, 0x24, 0x00, 0x00, 0x00, 0x00, 0x00, 0x06, 0x00,
  0x08, 0x00, 0x04, 0x00, 0x06, 0x00, 0x00, 0x00, 0x04, 0x00, 0x00, 0x00,
  0x00, 0x00, 0x00, 0x00, 0x0c, 0x00, 0x18, 0x00, 0x14, 0x00, 0x10, 0x00,
  0x0c, 0x00, 0x04, 0x00, 0x0c, 0x00, 0x00, 0x00, 0xe3, 0x6f, 0xcc, 0xe6,
  0xe9, 0xe8, 0x54, 0x12, 0x02, 0x00, 0x00, 0x00, 0x02, 0x00, 0x00, 0x00,
  0x04, 0x00, 0x00, 0x00, 0x06, 0x00, 0x00, 0x00, 0x32, 0x2e, 0x31, 0x39,
  0x2e, 0x30, 0x00, 0x00, 0x0a, 0xf6, 0xff, 0xff, 0x04, 0x00, 0x00, 0x00,
  0x10, 0x00, 0x00, 0x00, 0x31, 0x2e, 0x35, 0x2e, 0x30, 0x00, 0x00, 0x00,
  0x00, 0x00, 0x00, 0x00, 0x00, 0x00, 0x00, 0x00, 0xc4, 0xef, 0xff, 0xff,
  0xc8, 0xef, 0xff, 0xff, 0xcc, 0xef, 0xff, 0xff, 0xd0, 0xef, 0xff, 0xff,
  0xd4, 0xef, 0xff, 0xff, 0x3a, 0xf6, 0xff, 0xff, 0x04, 0x00, 0x00, 0x00,
  0xc0, 0x01, 0x00, 0x00, 0xac, 0xc3, 0xed, 0x3e, 0x4f, 0xa3, 0xb4, 0x3e,
  0x4b, 0x9b, 0x00, 0xbe, 0x82, 0x71, 0x83, 0x3e, 0x2c, 0x1d, 0x97, 0x3d,
  0xa6, 0xfe, 0x05, 0x3e, 0xf2, 0x39, 0x0a, 0x3f, 0xbc, 0xdd, 0x9f, 0x3c,
  0x16, 0x03, 0x32, 0xbd, 0xec, 0x7b, 0x98, 0x3e, 0xa9, 0xbd, 0x98, 0x3e,
  0xf1, 0x34, 0x9f, 0xbe, 0x9a, 0xdc, 0x88, 0x3e, 0x18, 0xca, 0x77, 0xbf,
  0x64, 0x0f, 0x4a, 0x3e, 0x2c, 0x46, 0x20, 0xbe, 0x9b, 0x07, 0x97, 0x3e,
  0x79, 0xe3, 0x6a, 0x3e, 0xaa, 0xc5, 0xbc, 0x3d, 0x79, 0x9b, 0xff, 0x3e,
  0x72, 0xfd, 0x3e, 0x3f, 0x14, 0x37, 0xaa, 0x3e, 0x72, 0x5c, 0xfd, 0x3e,
  0x5a, 0xf5, 0xa4, 0x3e, 0xc1, 0xa1, 0xaa, 0x3c, 0x18, 0xcc, 0xeb, 0x3e,
  0xdf, 0x41, 0x93, 0x3e, 0xc2, 0x0f, 0x26, 0xbe, 0x19, 0x49, 0x54, 0x3d,
  0xc4, 0x7d, 0xf1, 0x3d, 0x35, 0xd4, 0x93, 0xbc, 0x4d, 0x51, 0x8d, 0xbe,
  0x13, 0x1a, 0x00, 0x3e, 0x3a, 0xa5, 0xd4, 0xbe, 0x00, 0xf9, 0xda, 0xbe,
  0xc0, 0xb8, 0x69, 0x3c, 0x37, 0x03, 0xcf, 0x3e, 0x98, 0xd9, 0x32, 0x3f,
  0x17, 0x98, 0x16, 0x3f, 0xaa, 0x79, 0x67, 0x3e, 0xaf, 0xc4, 0xaf, 0xbd,
  0xa2, 0x48, 0x02, 0x3f, 0x17, 0x45, 0xf1, 0xbe, 0x93, 0xb7, 0xe1, 0xbe,
  0x96, 0x99, 0xaf, 0x3e, 0x01, 0xf7, 0xd6, 0xbe, 0xa1, 0xf5, 0x49, 0xbe,
  0xa7, 0x95, 0x4d, 0xbe, 0x4d, 0xef, 0xb5, 0x3e, 0x50, 0xe1, 0xba, 0x3d,
  0x25, 0x8e, 0x45, 0x3e, 0xcb, 0x83, 0xf6, 0xbd, 0x2b, 0xb2, 0x39, 0xbd,
  0x94, 0x33, 0xe1, 0x3d, 0x03, 0x5a, 0x06, 0xbf, 0x1a, 0x61, 0xe5, 0xbe,
  0xbc, 0x25, 0xae, 0x3d, 0x22, 0x53, 0x0c, 0x3e, 0xe5, 0x7a, 0x4f, 0xbe,
  0x41, 0x85, 0xa6, 0xbe, 0x8d, 0x55, 0xd4, 0xbe, 0x22, 0x53, 0xa2, 0xbe,
  0x00, 0xe0, 0x12, 0x3f, 0xfc, 0xd9, 0x64, 0xbe, 0x95, 0x50, 0xb4, 0xbe,
  0x28, 0x97, 0x7f, 0xbd, 0x03, 0xa7, 0x79, 0xbe, 0x5d, 0xde, 0xb4, 0x3e,
  0x5d, 0x48, 0xe1, 0x3e, 0x7a, 0x88, 0x3c, 0xbd, 0x1e, 0x7d, 0xb7, 0xbd,
  0xdb, 0x07, 0xd6, 0x3e, 0x6f, 0x1d, 0x2f, 0xbe, 0xd4, 0xd3, 0x8a, 0xbe,
  0xcd, 0x06, 0xd3, 0x3b, 0x05, 0x30, 0x3d, 0x3e, 0x7b, 0xab, 0x16, 0x3f,
  0x3a, 0xc1, 0x8c, 0xbe, 0x14, 0x00, 0xab, 0xbe, 0xf8, 0x69, 0x5f, 0xbd,
  0x50, 0xc4, 0x6c, 0xbd, 0xec, 0x02, 0xe1, 0xbe, 0x2c, 0x13, 0x40, 0xbe,
  0x50, 0x62, 0xb2, 0x3d, 0xc0, 0xa7, 0xe8, 0x3c, 0x3f, 0xa8, 0x90, 0xbe,
  0x8b, 0x08, 0xa6, 0xbe, 0x48, 0xdf, 0x40, 0xbe, 0x68, 0x33, 0xe1, 0x3d,
  0x93, 0xe0, 0xe5, 0xbe, 0x34, 0x8a, 0x18, 0xbe, 0xd6, 0x0a, 0xb5, 0xbe,
  0x6c, 0x7f, 0x88, 0xbd, 0xb0, 0x73, 0x02, 0xbf, 0xfc, 0xf1, 0xca, 0xbe,
  0x39, 0x73, 0x02, 0x3f, 0x50, 0xb5, 0xb5, 0xbe, 0x36, 0x9d, 0x57, 0xbe,
  0xfb, 0xb5, 0x8d, 0x3e, 0xc7, 0x94, 0x98, 0xbd, 0xc9, 0xd0, 0xf1, 0xbe,
  0xc5, 0xfc, 0x63, 0xbe, 0x98, 0x98, 0x0a, 0x3c, 0x79, 0xc6, 0x28, 0x3e,
  0x78, 0xfe, 0x06, 0x3f, 0xc6, 0xfb, 0xe2, 0x3e, 0x92, 0x88, 0xaf, 0x3e,
  0x2a, 0x0a, 0x6d, 0x3b, 0x5f, 0xfa, 0xd8, 0x3e, 0x33, 0x34, 0x2c, 0x3d,
  0x74, 0xe7, 0xf2, 0x3e, 0xd5, 0xea, 0xca, 0xbe, 0x06, 0xf8, 0xff, 0xff,
  0x04, 0x00, 0x00, 0x00, 0x40, 0x00, 0x00, 0x00, 0xd1, 0x9a, 0x89, 0xbe,
  0x89, 0x73, 0xe4, 0x3e, 0xc1, 0x21, 0x33, 0xbe, 0xcd, 0xd0, 0x80, 0xbe,
  0x66, 0x25, 0x99, 0x3e, 0x6c, 0xb1, 0xb4, 0xbd, 0xfe, 0xea, 0x84, 0xbd,
  0x4b, 0xb9, 0x47, 0x3e, 0x30, 0x2f, 0x73, 0x3e, 0x2f, 0xf7, 0x87, 0x3e,
  0x4f, 0xa6, 0x9a, 0x3e, 0x00, 0x00, 0x00, 0x00, 0x00, 0x00, 0x00, 0x00,
  0x00, 0x00, 0x00, 0x00, 0x55, 0x13, 0xbd, 0x3e, 0xd8, 0xad, 0x18, 0xbd,
  0x52, 0xf8, 0xff, 0xff, 0x04, 0x00, 0x00, 0x00, 0x40, 0x00, 0x00, 0x00,
  0x45, 0xce, 0xda, 0x3e, 0xfa, 0x03, 0x57, 0xbc, 0x80, 0x52, 0xe4, 0x3d,
  0xeb, 0xce, 0x1c, 0xbc, 0x70, 0xf1, 0x90, 0x3e, 0xc0, 0x9c, 0x72, 0x3e,
  0x88, 0x95, 0x45, 0xbd, 0x37, 0x22, 0xbc, 0x3e, 0xfc, 0x0f, 0x0a, 0xbd,
  0x75, 0x5f, 0x7f, 0xbd, 0x7b, 0x1c, 0x11, 0x3e, 0x24, 0xf2, 0xb3, 0x3e,
  0x14, 0x39, 0xae, 0x3d, 0xa4, 0x44, 0x47, 0xbe, 0x2d, 0x32, 0xe2, 0xbb,
  0x9f, 0x1e, 0x91, 0x3e, 0x9e, 0xf8, 0xff, 0xff, 0x04, 0x00, 0x00, 0x00,
  0x20, 0x00, 0x00, 0x00, 0x2f, 0x20, 0x80, 0x3e, 0x22, 0xba, 0x94, 0x3e,
  0x38, 0xff, 0x15, 0xbd, 0x67, 0x0b, 0x03, 0x3d, 0x94, 0x0e, 0x49, 0x3b,
  0xd1, 0xe8, 0x9c, 0x3e, 0x2b, 0x95, 0x93, 0x3e, 0x91, 0x48, 0x95, 0x3c,
  0xca, 0xf8, 0xff, 0xff, 0x04, 0x00, 0x00, 0x00, 0x0c, 0x00, 0x00, 0x00,
  0xa0, 0xed, 0xca, 0x3b, 0x28, 0xdc, 0xc3, 0xba, 0x59, 0xb4, 0xaf, 0xbc,
  0xe2, 0xf8, 0xff, 0xff, 0x04, 0x00, 0x00, 0x00, 0x00, 0x04, 0x00, 0x00,
  0x8c, 0x5f, 0x9d, 0xbd, 0xce, 0xad, 0x12, 0x3f, 0x80, 0xa9, 0x29, 0xbd,
  0xb3, 0x9e, 0xe2, 0xbe, 0x87, 0x27, 0x96, 0xbd, 0x46, 0x2a, 0x51, 0xbd,
  0x4c, 0xdd, 0x24, 0xbe, 0x75, 0x17, 0xe9, 0x3e, 0x55, 0xda, 0x2a, 0xbd,
  0x48, 0x6e, 0x75, 0x3e, 0x36, 0x5b, 0xe9, 0x3e, 0x95, 0x3f, 0x96, 0x3e,
  0x43, 0x12, 0xd3, 0x3e, 0x9c, 0x16, 0xbb, 0x3d, 0x1e, 0x38, 0xed, 0x3d,
  0x77, 0x58, 0x6a, 0xbe, 0x33, 0x4b, 0x7d, 0xbe, 0x90, 0xf8, 0x0f, 0x3e,
  0x90, 0xc7, 0xaa, 0xbc, 0xe5, 0x06, 0x8d, 0x3e, 0x3a, 0xbb, 0x5d, 0xbe,
  0x15, 0x12, 0xd6, 0xbe, 0x12, 0xb2, 0x7f, 0xbe, 0x26, 0xdf, 0xd0, 0x3e,
  0xb0, 0x26, 0x9b, 0xbd, 0x0e, 0xde, 0x0a, 0xbe, 0x1b, 0xbb, 0xd9, 0xbe,
  0xb0, 0x88, 0x5f, 0x3d, 0x3d, 0xd3, 0xc6, 0x3e, 0xb0, 0x5e, 0x03, 0xbd,
  0xb7, 0x6f, 0x54, 0xbe, 0x2b, 0x8a, 0xcd, 0xbe, 0x20, 0x46, 0x53, 0xbc,
  0x4a, 0x6b, 0x3b, 0xbe, 0xe6, 0x94, 0x3a, 0x3c, 0x48, 0xbd, 0xa4, 0xbe,
  0xb5, 0x8f, 0x9c, 0xbd, 0x30, 0xc8, 0xd3, 0xbd, 0x26, 0x7b, 0x8f, 0xbd,
  0x0d, 0x37, 0x5e, 0x3e, 0x39, 0x9c, 0x1d, 0x3f, 0x66, 0x4f, 0xdf, 0x3d,
  0x33, 0x11, 0xb5, 0x3e, 0x00, 0x26, 0x17, 0xbd, 0xc6, 0x52, 0x38, 0x3e,
  0xe1, 0x7f, 0xc9, 0x3e, 0xc6, 0x5c, 0xb6, 0x3e, 0xf7, 0x88, 0xf0, 0xbe,
  0x2e, 0xd4, 0x98, 0xbd, 0xcd, 0x99, 0x86, 0xbd, 0x08, 0xc6, 0xa0, 0x3d,
  0xe4, 0x1d, 0xb0, 0xbe, 0xe5, 0xb6, 0xc7, 0x3e, 0xdc, 0xb5, 0xd6, 0x3d,
  0x4c, 0xe4, 0x66, 0x3e, 0xdf, 0xe7, 0xe2, 0xbe, 0x71, 0x36, 0xcb, 0xbe,
  0x86, 0x5f, 0x31, 0x3e, 0xf2, 0x87, 0xb2, 0xbe, 0xb4, 0x37, 0xcb, 0x3d,
  0x7d, 0x49, 0xc9, 0x3e, 0xf7, 0xe8, 0xcd, 0x3e, 0x34, 0x5d, 0xe3, 0x3d,
  0xb2, 0x5d, 0x60, 0xbe, 0x6b, 0x72, 0xbe, 0xbe, 0xfc, 0x1e, 0xc7, 0x3e,
  0x6c, 0x49, 0xa1, 0x3e, 0x13, 0x63, 0x1d, 0xbf, 0xaa, 0x38, 0xcf, 0x3e,
  0x57, 0x62, 0x0c, 0xbe, 0x4b, 0xc4, 0x81, 0x3e, 0x76, 0x9e, 0x44, 0xbe,
  0xfa, 0x5f, 0xae, 0xbd, 0xfa, 0xd1, 0xb7, 0xbc, 0x00, 0x63, 0xb5, 0xbc,
  0x30, 0x55, 0x27, 0xbe, 0x14, 0xb7, 0xce, 0x3d, 0x97, 0xad, 0x80, 0xbe,
  0xc9, 0x7e, 0xd5, 0x3e, 0x69, 0xc0, 0x34, 0x3e, 0xae, 0xc3, 0x36, 0x3e,
  0x79, 0xba, 0x44, 0xbd, 0x6b, 0xdb, 0xf4, 0xbd, 0x33, 0x03, 0xb3, 0x3c,
  0x92, 0x75, 0x0a, 0x3f, 0xc9, 0xad, 0x8f, 0xbe, 0x5f, 0xc1, 0x89, 0xbe,
  0xc0, 0x9b, 0xe6, 0x3e, 0xed, 0xe7, 0xb9, 0xbe, 0xd7, 0x3a, 0x81, 0x3d,
  0x7a, 0x70, 0xb1, 0x3d, 0xa8, 0x11, 0x17, 0x3d, 0x21, 0xad, 0xd3, 0xbe,
  0x3d, 0x4b, 0xdd, 0xbe, 0xb4, 0x28, 0x6e, 0xbd, 0xc9, 0x53, 0x32, 0x3e,
  0x07, 0x3b, 0xc7, 0xbc, 0x58, 0x26, 0x99, 0xbe, 0x3a, 0x82, 0x90, 0xbe,
  0x9e, 0x86, 0x5c, 0x3e, 0x38, 0x44, 0x64, 0xbe, 0x2f, 0xb2, 0x50, 0x3d,
  0x08, 0xab, 0xaf, 0xbe, 0xf9, 0x13, 0x83, 0x3e, 0xdd, 0x11, 0x24, 0xbe,
  0x38, 0x15, 0xe0, 0xbe, 0x5c, 0xe5, 0x3d, 0x3e, 0x41, 0x62, 0xdd, 0x3e,
  0xc6, 0xb1, 0x95, 0xbe, 0x15, 0x7c, 0xa5, 0x3e, 0x32, 0xbc, 0x41, 0x3c,
  0xe3, 0xf8, 0xe8, 0x3e, 0x1f, 0xba, 0x5d, 0xbe, 0x24, 0x73, 0x00, 0x3f,
  0x4d, 0xeb, 0xdb, 0xbe, 0x08, 0x12, 0x8e, 0xbe, 0x07, 0xad, 0x22, 0x3f,
  0x62, 0x2c, 0x44, 0xbd, 0xb7, 0xa1, 0x30, 0x3e, 0x60, 0x5b, 0xe8, 0xbd,
  0x98, 0x7b, 0x9b, 0xbe, 0x29, 0xb2, 0x5b, 0x3e, 0x59, 0x3e, 0xbb, 0x3e,
  0xed, 0x0e, 0xab, 0xbe, 0xc1, 0x6d, 0x96, 0xbe, 0xc0, 0x07, 0x48, 0x3d,
  0x07, 0x40, 0xba, 0xbd, 0xcc, 0xcf, 0xaf, 0x3e, 0x15, 0x98, 0xe5, 0x3d,
  0xb2, 0x8e, 0xef, 0x3c, 0x49, 0x7a, 0x0a, 0xbe, 0x3f, 0x76, 0x04, 0xbe,
  0x5d, 0x17, 0x67, 0xbe, 0x6e, 0x77, 0x15, 0xbe, 0x13, 0xc3, 0xc5, 0x3e,
  0xf6, 0x57, 0x45, 0x3d, 0x55, 0x95, 0x25, 0x3e, 0x53, 0x53, 0x80, 0x3e,
  0x71, 0x5e, 0xec, 0xbd, 0x28, 0x20, 0x5b, 0x3d, 0x97, 0x30, 0x8e, 0x3e,
  0x7a, 0xed, 0x3b, 0x3e, 0x18, 0xbd, 0x09, 0x3e, 0xa3, 0x78, 0xae, 0xbc,
  0x11, 0x9b, 0x8d, 0x3e, 0x23, 0x96, 0x97, 0x3e, 0x5a, 0xb5, 0x3f, 0x3e,
  0xa7, 0x88, 0x99, 0xbe, 0xc2, 0xe4, 0x31, 0xbe, 0xdc, 0x28, 0x29, 0xbe,
  0x00, 0x05, 0x1a, 0x3e, 0x7c, 0xa1, 0xbe, 0x3e, 0x55, 0x95, 0x34, 0xbe,
  0x19, 0xdb, 0x88, 0xbe, 0xc7, 0x31, 0xb6, 0x3e, 0x65, 0xd8, 0x84, 0x3e,
  0xc2, 0xfd, 0x70, 0x3e, 0x9e, 0x8b, 0x2c, 0x3e, 0xd1, 0x0c, 0xf7, 0xbe,
  0x36, 0xad, 0xfb, 0xbe, 0x32, 0x1a, 0x2f, 0xbe, 0xdc, 0x9d, 0x0d, 0x3f,
  0xce, 0xf1, 0xa3, 0x3e, 0xda, 0xca, 0x05, 0x3f, 0x31, 0x57, 0x1d, 0xbe,
  0x3e, 0x49, 0x36, 0x3f, 0xef, 0x0d, 0x85, 0x3e, 0xe0, 0x11, 0x06, 0xbd,
  0x95, 0xf3, 0x85, 0x3e, 0xd4, 0x7e, 0xb9, 0x3e, 0x2a, 0xcb, 0x7e, 0xbe,
  0xf6, 0x26, 0x32, 0x3e, 0xca, 0x54, 0x10, 0x3e, 0x0a, 0x49, 0x3d, 0x3e,
  0x64, 0x70, 0x00, 0x3f, 0x76, 0x88, 0x19, 0x3f, 0xbf, 0x37, 0xcb, 0xbe,
  0xd8, 0xae, 0xdc, 0x3e, 0x79, 0xb3, 0xa8, 0xbe, 0x21, 0x0a, 0xb3, 0xbe,
  0x44, 0x3c, 0xa2, 0x3e, 0x64, 0x3c, 0x87, 0x3d, 0xaa, 0x7c, 0x91, 0xbd,
  0xfc, 0x98, 0x21, 0x3e, 0x0b, 0x75, 0xcc, 0x3e, 0x49, 0x7d, 0xe7, 0x3e,
  0x42, 0xc9, 0x09, 0x3f, 0xd4, 0x96, 0xd0, 0xbe, 0x27, 0x37, 0xa2, 0x3e,
  0x6f, 0x93, 0xc6, 0x3e, 0xe5, 0xa0, 0x11, 0x3f, 0x72, 0xd5, 0x57, 0xbe,
  0x6f, 0xeb, 0x54, 0x3e, 0x61, 0x1d, 0x5a, 0xbf, 0x28, 0x53, 0xd8, 0x3c,
  0xc6, 0xdc, 0x01, 0xbf, 0xed, 0xd5, 0xfc, 0xbd, 0x80, 0xa4, 0xc2, 0x3e,
  0x5a, 0xa2, 0x16, 0x3e, 0xf2, 0xe8, 0xc7, 0xbe, 0x61, 0x1d, 0x2c, 0x3f,
  0xfd, 0x0a, 0xa9, 0xbe, 0x5f, 0xf4, 0x5f, 0x3d, 0x3e, 0x70, 0x1c, 0x3e,
  0xb2, 0x53, 0x5f, 0x3e, 0x64, 0x98, 0x61, 0xbe, 0xb0, 0xfd, 0xe9, 0xbd,
  0x8e, 0x2b, 0x17, 0xbf, 0x74, 0x76, 0x28, 0x3f, 0x92, 0xfa, 0x03, 0xbe,
  0xec, 0x9a, 0x17, 0x3f, 0x15, 0x83, 0x48, 0x3f, 0x2f, 0x9d, 0x1d, 0xbf,
  0x04, 0x39, 0x1b, 0x3f, 0x18, 0xd0, 0xa7, 0x3e, 0x91, 0x2d, 0xb8, 0xbe,
  0xa9, 0x00, 0x9e, 0xbd, 0x3a, 0x1b, 0x73, 0x3e, 0x54, 0x14, 0x9d, 0x3e,
  0x8c, 0x56, 0xca, 0x3d, 0xf7, 0x50, 0x7c, 0xbe, 0x97, 0x60, 0xca, 0xbe,
  0x58, 0x3a, 0xe3, 0xbe, 0x15, 0xfb, 0xcf, 0x3e, 0x9e, 0xab, 0xad, 0xbe,
  0xa9, 0xd6, 0x25, 0x3d, 0x5b, 0xc6, 0xcb, 0x3e, 0xe4, 0x42, 0x13, 0xbf,
  0x91, 0x4c, 0x9f, 0x3e, 0x2b, 0xf7, 0x43, 0x3e, 0xf2, 0x1e, 0x1c, 0xbe,
  0x6d, 0xc7, 0xfe, 0xbe, 0x4b, 0x3f, 0x21, 0xbe, 0x7a, 0x29, 0xfc, 0xbe,
  0x71, 0x66, 0x6e, 0x3e, 0x72, 0x1f, 0xa3, 0xbe, 0x50, 0x98, 0xb8, 0xbe,
  0x44, 0xc3, 0xf4, 0xbd, 0x18, 0xa0, 0x38, 0x3d, 0x5d, 0xfd, 0x84, 0xbe,
  0xb7, 0x0d, 0x16, 0x3e, 0x9e, 0xdc, 0x0a, 0xbe, 0x65, 0xc9, 0x0c, 0x3f,
  0x42, 0xeb, 0x85, 0xbe, 0x55, 0xcc, 0xf4, 0x3e, 0xd7, 0x6a, 0xfa, 0x3d,
  0x86, 0xf0, 0xbb, 0xbe, 0xf1, 0x27, 0x00, 0x3f, 0x94, 0x1c, 0x06, 0xbd,
  0x9c, 0x13, 0x11, 0x3f, 0xb8, 0xd8, 0x16, 0x3f, 0xa2, 0x62, 0x3b, 0xbe,
  0x9c, 0x43, 0xc1, 0xbe, 0x42, 0xf8, 0x18, 0xbe, 0x16, 0x87, 0xee, 0x3e,
  0x18, 0x9a, 0x82, 0xbe, 0xee, 0xfc, 0xff, 0xff, 0x04, 0x00, 0x00, 0x00,
  0x00, 0x02, 0x00, 0x00, 0xfe, 0xa9, 0x13, 0x3f, 0xa4, 0xc1, 0x74, 0x3e,
  0x5a, 0x1f, 0x11, 0x3f, 0xc7, 0x83, 0xaa, 0xbe, 0x4d, 0x28, 0x0a, 0x3f,
  0x8c, 0xce, 0xa3, 0x3d, 0xa8, 0x41, 0x02, 0x3f, 0xd3, 0x13, 0x50, 0x3f,
  0xa7, 0x42, 0xa9, 0xbd, 0x46, 0xcb, 0x8f, 0xbe, 0xaa, 0x26, 0x81, 0x3e,
  0x3d, 0x2a, 0x9f, 0x3f, 0xae, 0x0f, 0x17, 0xbe, 0x21, 0x80, 0xe2, 0xbe,
  0xb3, 0xa8, 0x8f, 0xbe, 0xe7, 0x9c, 0x84, 0xbd, 0x05, 0xcb, 0x80, 0x3f,
  0x04, 0xe8, 0xcc, 0x3e, 0xd4, 0x78, 0xa7, 0x3d, 0x59, 0x6b, 0xa2, 0xbd,
  0x1d, 0x44, 0x7b, 0x3f, 0x99, 0x64, 0xf8, 0x3e, 0x26, 0xcd, 0xaa, 0xbe,
  0xbc, 0x01, 0x24, 0x3f, 0xd9, 0x49, 0xc6, 0x3e, 0x66, 0xcc, 0xb7, 0x3e,
  0x15, 0x21, 0x0d, 0x3e, 0xce, 0x38, 0xa1, 0x3f, 0xa2, 0xe3, 0x4d, 0x3e,
  0x28, 0x7f, 0xff, 0xbe, 0x3d, 0x71, 0x25, 0x3e, 0x91, 0x52, 0xe3, 0x3e,
  0xa6, 0xe7, 0x08, 0x3e, 0xd3, 0x3c, 0xb9, 0x3e, 0x14, 0x5d, 0xcf, 0x3e,
  0x11, 0x85, 0xee, 0x3e, 0x55, 0x5a, 0xb0, 0xbd, 0x9c, 0x51, 0x8f, 0x3e,
  0x0d, 0x28, 0xfa, 0xbd, 0x78, 0x8b, 0x2e, 0x3e, 0xeb, 0x4e, 0xe9, 0x3e,
  0x40, 0x08, 0x2f, 0x3e, 0x15, 0x1d, 0x64, 0xbe, 0x01, 0xf9, 0x5c, 0xbe,
  0xfe, 0xd8, 0x3c, 0xbe, 0x35, 0xfd, 0x15, 0x3e, 0x1d, 0x07, 0x9c, 0x3e,
  0x58, 0xb8, 0xea, 0xbd, 0xb0, 0x5a, 0x03, 0xbf, 0x9e, 0x24, 0x66, 0x3b,
  0xd6, 0xff, 0x67, 0xbc, 0xdc, 0x2c, 0x23, 0xbc, 0xad, 0xdb, 0xc3, 0x3d,
  0x7b, 0xb5, 0x8e, 0xbd, 0x35, 0x1a, 0x5e, 0xbe, 0x08, 0xbb, 0x9b, 0x3e,
  0x55, 0x3f, 0xd7, 0x3e, 0x6f, 0xb5, 0x14, 0xbe, 0xcb, 0x39, 0x22, 0x3f,
  0x9c, 0xca, 0x25, 0xbf, 0xba, 0x9e, 0x26, 0xbe, 0x37, 0xce, 0x50, 0x3e,
  0x42, 0xb9, 0xb4, 0xbd, 0x5e, 0x76, 0x08, 0x3f, 0x56, 0x38, 0x0d, 0xbf,
  0x72, 0xd0, 0xba, 0xbe, 0xc0, 0x77, 0x3a, 0x3e, 0xae, 0x83, 0x09, 0xbe,
  0xc0, 0x8b, 0x17, 0xbf, 0x16, 0x95, 0xb1, 0x3d, 0xa2, 0x94, 0xab, 0x3d,
  0xd9, 0xb9, 0x8a, 0x3e, 0x1b, 0xfe, 0xd9, 0xbe, 0x27, 0xbd, 0x98, 0x3e,
  0x5c, 0xd3, 0xa2, 0x3e, 0x12, 0x55, 0x70, 0x3e, 0x18, 0xb0, 0xda, 0x3d,
  0xa6, 0x0f, 0xb1, 0xbb, 0x89, 0xad, 0xf9, 0xbe, 0x71, 0x72, 0x87, 0x3e,
  0x0a, 0x20, 0x2d, 0x3f, 0x4c, 0x38, 0xdb, 0xbe, 0x4c, 0x16, 0x85, 0x3e,
  0xbe, 0xd6, 0x93, 0x3e, 0x75, 0x2a, 0xf5, 0x3e, 0xe3, 0x27, 0x0a, 0x3e,
  0xfa, 0x94, 0x92, 0xbe, 0x20, 0x79, 0x5a, 0x3f, 0xd6, 0x26, 0x5e, 0xbe,
  0x53, 0xc1, 0x55, 0xbe, 0x3e, 0xae, 0xd5, 0xbd, 0xcc, 0x43, 0x75, 0x3f,
  0x86, 0xc5, 0xfe, 0x3e, 0x52, 0x2e, 0xae, 0xbe, 0x2d, 0xb2, 0x4b, 0x3f,
  0xaf, 0x45, 0x0f, 0x3f, 0x3c, 0xed, 0x23, 0x3f, 0x85, 0xcc, 0xf5, 0x3d,
  0xd6, 0x9d, 0x6c, 0x3f, 0x32, 0xf5, 0xce, 0xbc, 0x92, 0x4a, 0xeb, 0x3e,
  0x54, 0xaf, 0x2a, 0x3f, 0x9b, 0xf1, 0x7c, 0xbe, 0x04, 0x9b, 0x9a, 0x3e,
  0xf3, 0xcb, 0xca, 0xbe, 0xc5, 0x21, 0xd3, 0xbe, 0x18, 0xee, 0x3e, 0x3e,
  0x5a, 0xec, 0x4f, 0x3f, 0xab, 0x5c, 0x18, 0x3f, 0xb7, 0x83, 0xf6, 0xbe,
  0xf6, 0x88, 0xa1, 0x3d, 0x94, 0xaa, 0xc9, 0x3e, 0x1d, 0x2b, 0x52, 0x3b,
  0xd0, 0x7c, 0xee, 0xbe, 0x7b, 0xda, 0x11, 0xbe, 0x8a, 0x7f, 0x0a, 0xbe,
  0xf5, 0xfd, 0xdd, 0xbe, 0x4c, 0xae, 0x44, 0xbd, 0x61, 0x9d, 0xb7, 0x3d,
  0x1f, 0x37, 0x26, 0xbd, 0x28, 0x68, 0x4e, 0x3e, 0x72, 0x60, 0xc5, 0xbd,
  0xa3, 0x1e, 0xd6, 0x3e, 0x7c, 0xd6, 0x64, 0xbf, 0x8a, 0x5f, 0x1d, 0x3d,
  0x04, 0xba, 0x44, 0x3f, 0x72, 0x4c, 0x04, 0xbf, 0x54, 0xc4, 0xef, 0x3e,
  0xfa, 0xfe, 0xff, 0xff, 0x04, 0x00, 0x00, 0x00, 0x60, 0x00, 0x00, 0x00,
  0x8b, 0xe1, 0x18, 0x3f, 0x87, 0x37, 0x6e, 0x3f, 0xfb, 0x47, 0x13, 0x3f,
  0x57, 0xdb, 0x86, 0xbe, 0x10, 0xb8, 0xb6, 0xbe, 0x18, 0x8d, 0x2a, 0x3f,
  0x78, 0x5d, 0x87, 0x3f, 0xc0, 0x60, 0x95, 0xbf, 0x8e, 0x84, 0x3f, 0x3e,
  0xbb, 0xd4, 0x01, 0x3f, 0xca, 0x1f, 0x14, 0xbf, 0x97, 0x8e, 0xb9, 0x3d,
  0x68, 0x0b, 0x82, 0x3d, 0xad, 0xdc, 0xe3, 0xbe, 0x14, 0x54, 0x54, 0x3e,
  0x29, 0x1f, 0xd8, 0x3e, 0x62, 0x0c, 0x31, 0xbf, 0x7e, 0xe2, 0xb1, 0xbe,
  0x83, 0xe5, 0xc6, 0xbd, 0xb8, 0xef, 0xbb, 0x3e, 0xaf, 0x5b, 0x03, 0x3e,
  0x7e, 0xca, 0xcb, 0xbf, 0x2b, 0xa7, 0xcc, 0xbf, 0x9b, 0x78, 0x6a, 0x3f,
  0x04, 0xf9, 0xff, 0xff, 0x08, 0xf9, 0xff, 0xff, 0x0f, 0x00, 0x00, 0x00,
  0x4d, 0x4c, 0x49, 0x52, 0x20, 0x43, 0x6f, 0x6e, 0x76, 0x65, 0x72, 0x74,
  0x65, 0x64, 0x2e, 0x00, 0x01, 0x00, 0x00, 0x00, 0x14, 0x00, 0x00, 0x00,
  0x00, 0x00, 0x0e, 0x00, 0x18, 0x00, 0x14, 0x00, 0x10, 0x00, 0x0c, 0x00,
  0x08, 0x00, 0x04, 0x00, 0x0e, 0x00, 0x00, 0x00, 0x14, 0x00, 0x00, 0x00,
  0x1c, 0x00, 0x00, 0x00, 0x6c, 0x01, 0x00, 0x00, 0x70, 0x01, 0x00, 0x00,
  0x74, 0x01, 0x00, 0x00, 0x04, 0x00, 0x00, 0x00, 0x6d, 0x61, 0x69, 0x6e,
  0x00, 0x00, 0x00, 0x00, 0x05, 0x00, 0x00, 0x00, 0x14, 0x01, 0x00, 0x00,
  0xcc, 0x00, 0x00, 0x00, 0x84, 0x00, 0x00, 0x00, 0x50, 0x00, 0x00, 0x00,
  0x14, 0x00, 0x00, 0x00, 0x00, 0x00, 0x0e, 0x00, 0x1a, 0x00, 0x14, 0x00,
  0x10, 0x00, 0x0c, 0x00, 0x0b, 0x00, 0x04, 0x00, 0x0e, 0x00, 0x00, 0x00,
  0x1c, 0x00, 0x00, 0x00, 0x00, 0x00, 0x00, 0x09, 0x1c, 0x00, 0x00, 0x00,
  0x20, 0x00, 0x00, 0x00, 0x01, 0x00, 0x00, 0x00, 0x00, 0x00, 0x06, 0x00,
  0x08, 0x00, 0x04, 0x00, 0x06, 0x00, 0x00, 0x00, 0x00, 0x00, 0x80, 0x3f,
  0x01, 0x00, 0x00, 0x00, 0x0d, 0x00, 0x00, 0x00, 0x01, 0x00, 0x00, 0x00,
  0x0c, 0x00, 0x00, 0x00, 0x9a, 0xff, 0xff, 0xff, 0x10, 0x00, 0x00, 0x00,
  0x00, 0x00, 0x00, 0x08, 0x0c, 0x00, 0x00, 0x00, 0x10, 0x00, 0x00, 0x00,
  0xd0, 0xf9, 0xff, 0xff, 0x01, 0x00, 0x00, 0x00, 0x0c, 0x00, 0x00, 0x00,
  0x03, 0x00, 0x00, 0x00, 0x0b, 0x00, 0x00, 0x00, 0x01, 0x00, 0x00, 0x00,
  0x04, 0x00, 0x00, 0x00, 0xca, 0xff, 0xff, 0xff, 0x10, 0x00, 0x00, 0x00,
  0x00, 0x00, 0x00, 0x08, 0x10, 0x00, 0x00, 0x00, 0x14, 0x00, 0x00, 0x00,
  0x76, 0xff, 0xff, 0xff, 0x00, 0x00, 0x00, 0x01, 0x01, 0x00, 0x00, 0x00,
  0x0b, 0x00, 0x00, 0x00, 0x03, 0x00, 0x00, 0x00, 0x0a, 0x00, 0x00, 0x00,
  0x02, 0x00, 0x00, 0x00, 0x05, 0x00, 0x00, 0x00, 0x00, 0x00, 0x0e, 0x00,
  0x14, 0x00, 0x00, 0x00, 0x10, 0x00, 0x0c, 0x00, 0x0b, 0x00, 0x04, 0x00,
  0x0e, 0x00, 0x00, 0x00, 0x10, 0x00, 0x00, 0x00, 0x00, 0x00, 0x00, 0x08,
  0x10, 0x00, 0x00, 0x00, 0x14, 0x00, 0x00, 0x00, 0xba, 0xff, 0xff, 0xff,
  0x00, 0x00, 0x00, 0x01, 0x01, 0x00, 0x00, 0x00, 0x0a, 0x00, 0x00, 0x00,
  0x03, 0x00, 0x00, 0x00, 0x09, 0x00, 0x00, 0x00, 0x03, 0x00, 0x00, 0x00,
  0x06, 0x00, 0x00, 0x00, 0x00, 0x00, 0x0e, 0x00, 0x16, 0x00, 0x00, 0x00,
  0x10, 0x00, 0x0c, 0x00, 0x0b, 0x00, 0x04, 0x00, 0x0e, 0x00, 0x00, 0x00,
  0x18, 0x00, 0x00, 0x00, 0x00, 0x00, 0x00, 0x08, 0x18, 0x00, 0x00, 0x00,
  0x1c, 0x00, 0x00, 0x00, 0x00, 0x00, 0x06, 0x00, 0x08, 0x00, 0x07, 0x00,
  0x06, 0x00, 0x00, 0x00, 0x00, 0x00, 0x00, 0x01, 0x01, 0x00, 0x00, 0x00,
  0x09, 0x00, 0x00, 0x00, 0x03, 0x00, 0x00, 0x00, 0x00, 0x00, 0x00, 0x00,
  0x08, 0x00, 0x00, 0x00, 0x07, 0x00, 0x00, 0x00, 0x01, 0x00, 0x00, 0x00,
  0x0d, 0x00, 0x00, 0x00, 0x01, 0x00, 0x00, 0x00, 0x00, 0x00, 0x00, 0x00,
  0x0e, 0x00, 0x00, 0x00, 0x14, 0x05, 0x00, 0x00, 0xbc, 0x04, 0x00, 0x00,
  0x64, 0x04, 0x00, 0x00, 0x24, 0x04, 0x00, 0x00, 0xe8, 0x03, 0x00, 0x00,
  0xac, 0x03, 0x00, 0x00, 0x70, 0x03, 0x00, 0x00, 0x14, 0x03, 0x00, 0x00,
  0xc4, 0x02, 0x00, 0x00, 0x24, 0x02, 0x00, 0x00, 0x84, 0x01, 0x00, 0x00,
  0xe4, 0x00, 0x00, 0x00, 0x60, 0x00, 0x00, 0x00, 0x04, 0x00, 0x00, 0x00,
  0x3a, 0xfb, 0xff, 0xff, 0x00, 0x00, 0x00, 0x01, 0x14, 0x00, 0x00, 0x00,
  0x1c, 0x00, 0x00, 0x00, 0x1c, 0x00, 0x00, 0x00, 0x0e, 0x00, 0x00, 0x00,
  0x34, 0x00, 0x00, 0x00, 0x02, 0x00, 0x00, 0x00, 0xff, 0xff, 0xff, 0xff,
  0x03, 0x00, 0x00, 0x00, 0x24, 0xfb, 0xff, 0xff, 0x1b, 0x00, 0x00, 0x00,
  0x53, 0x74, 0x61, 0x74, 0x65, 0x66, 0x75, 0x6c, 0x50, 0x61, 0x72, 0x74,
  0x69, 0x74, 0x69, 0x6f, 0x6e, 0x65, 0x64, 0x43, 0x61, 0x6c, 0x6c, 0x5f,
  0x31, 0x3a, 0x30, 0x00, 0x02, 0x00, 0x00, 0x00, 0x01, 0x00, 0x00, 0x00,
  0x03, 0x00, 0x00, 0x00, 0x92, 0xfb, 0xff, 0xff, 0x00, 0x00, 0x00, 0x01,
  0x14, 0x00, 0x00, 0x00, 0x1c, 0x00, 0x00, 0x00, 0x1c, 0x00, 0x00, 0x00,
  0x0d, 0x00, 0x00, 0x00, 0x5c, 0x00, 0x00, 0x00, 0x02, 0x00, 0x00, 0x00,
  0xff, 0xff, 0xff, 0xff, 0x03, 0x00, 0x00, 0x00, 0x7c, 0xfb, 0xff, 0xff,
  0x40, 0x00, 0x00, 0x00, 0x73, 0x65, 0x71, 0x75, 0x65, 0x6e, 0x74, 0x69,
  0x61, 0x6c, 0x5f, 0x32, 0x5f, 0x31, 0x2f, 0x64, 0x65, 0x6e, 0x73, 0x65,
  0x5f, 0x39, 0x5f, 0x31, 0x2f, 0x4d, 0x61, 0x74, 0x4d, 0x75, 0x6c, 0x3b,
  0x73, 0x65, 0x71, 0x75, 0x65, 0x6e, 0x74, 0x69, 0x61, 0x6c, 0x5f, 0x32,
  0x5f, 0x31, 0x2f, 0x64, 0x65, 0x6e, 0x73, 0x65, 0x5f, 0x39, 0x5f, 0x31,
  0x2f, 0x42, 0x69, 0x61, 0x73, 0x41, 0x64, 0x64, 0x00, 0x00, 0x00, 0x00,
  0x02, 0x00, 0x00, 0x00, 0x01, 0x00, 0x00, 0x00, 0x03, 0x00, 0x00, 0x00,
  0x12, 0xfc, 0xff, 0xff, 0x00, 0x00, 0x00, 0x01, 0x14, 0x00, 0x00, 0x00,
  0x1c, 0x00, 0x00, 0x00, 0x1c, 0x00, 0x00, 0x00, 0x0c, 0x00, 0x00, 0x00,
  0x78, 0x00, 0x00, 0x00, 0x02, 0x00, 0x00, 0x00, 0xff, 0xff, 0xff, 0xff,
  0x08, 0x00, 0x00, 0x00, 0xfc, 0xfb, 0xff, 0xff, 0x5e, 0x00, 0x00, 0x00,
  0x73, 0x65, 0x71, 0x75, 0x65, 0x6e, 0x74, 0x69, 0x61, 0x6c, 0x5f, 0x32,
  0x5f, 0x31, 0x2f, 0x64, 0x65, 0x6e, 0x73, 0x65, 0x5f, 0x38, 0x5f, 0x31,
  0x2f, 0x4d, 0x61, 0x74, 0x4d, 0x75, 0x6c, 0x3b, 0x73, 0x65, 0x71, 0x75,
  0x65, 0x6e, 0x74, 0x69, 0x61, 0x6c, 0x5f, 0x32, 0x5f, 0x31, 0x2f, 0x64,
  0x65, 0x6e, 0x73, 0x65, 0x5f, 0x38, 0x5f, 0x31, 0x2f, 0x52, 0x65, 0x6c,
  0x75, 0x3b, 0x73, 0x65, 0x71, 0x75, 0x65, 0x6e, 0x74, 0x69, 0x61, 0x6c,
  0x5f, 0x32, 0x5f, 0x31, 0x2f, 0x64, 0x65, 0x6e, 0x73, 0x65, 0x5f, 0x38,
  0x5f, 0x31, 0x2f, 0x42, 0x69, 0x61, 0x73, 0x41, 0x64, 0x64, 0x00, 0x00,
  0x02, 0x00, 0x00, 0x00, 0x01, 0x00, 0x00, 0x00, 0x08, 0x00, 0x00, 0x00,
  0xae, 0xfc, 0xff, 0xff, 0x00, 0x00, 0x00, 0x01, 0x14, 0x00, 0x00, 0x00,
  0x1c, 0x00, 0x00, 0x00, 0x1c, 0x00, 0x00, 0x00, 0x0b, 0x00, 0x00, 0x00,
  0x78, 0x00, 0x00, 0x00, 0x02, 0x00, 0x00, 0x00, 0xff, 0xff, 0xff, 0xff,
  0x10, 0x00, 0x00, 0x00, 0x98, 0xfc, 0xff, 0xff, 0x5e, 0x00, 0x00, 0x00,
  0x73, 0x65, 0x71, 0x75, 0x65, 0x6e, 0x74, 0x69, 0x61, 0x6c, 0x5f, 0x32,
  0x5f, 0x31, 0x2f, 0x64, 0x65, 0x6e, 0x73, 0x65, 0x5f, 0x37, 0x5f, 0x31,
  0x2f, 0x4d, 0x61, 0x74, 0x4d, 0x75, 0x6c, 0x3b, 0x73, 0x65, 0x71, 0x75,
  0x65, 0x6e, 0x74, 0x69, 0x61, 0x6c, 0x5f, 0x32, 0x5f, 0x31, 0x2f, 0x64,
  0x65, 0x6e, 0x73, 0x65, 0x5f, 0x37, 0x5f, 0x31, 0x2f, 0x52, 0x65, 0x6c,
  0x75, 0x3b, 0x73, 0x65, 0x71, 0x75, 0x65, 0x6e, 0x74, 0x69, 0x61, 0x6c,
  0x5f, 0x32, 0x5f, 0x31, 0x2f, 0x64, 0x65, 0x6e, 0x73, 0x65, 0x5f, 0x37,
  0x5f, 0x31, 0x2f, 0x42, 0x69, 0x61, 0x73, 0x41, 0x64, 0x64, 0x00, 0x00,
  0x02, 0x00, 0x00, 0x00, 0x01, 0x00, 0x00, 0x00, 0x10, 0x00, 0x00, 0x00,
  0x4a, 0xfd, 0xff, 0xff, 0x00, 0x00, 0x00, 0x01, 0x14, 0x00, 0x00, 0x00,
  0x1c, 0x00, 0x00, 0x00, 0x1c, 0x00, 0x00, 0x00, 0x0a, 0x00, 0x00, 0x00,
  0x78, 0x00, 0x00, 0x00, 0x02, 0x00, 0x00, 0x00, 0xff, 0xff, 0xff, 0xff,
  0x10, 0x00, 0x00, 0x00, 0x34, 0xfd, 0xff, 0xff, 0x5e, 0x00, 0x00, 0x00,
  0x73, 0x65, 0x71, 0x75, 0x65, 0x6e, 0x74, 0x69, 0x61, 0x6c, 0x5f, 0x32,
  0x5f, 0x31, 0x2f, 0x64, 0x65, 0x6e, 0x73, 0x65, 0x5f, 0x36, 0x5f, 0x31,
  0x2f, 0x4d, 0x61, 0x74, 0x4d, 0x75, 0x6c, 0x3b, 0x73, 0x65, 0x71, 0x75,
  0x65, 0x6e, 0x74, 0x69, 0x61, 0x6c, 0x5f, 0x32, 0x5f, 0x31, 0x2f, 0x64,
  0x65, 0x6e, 0x73, 0x65, 0x5f, 0x36, 0x5f, 0x31, 0x2f, 0x52, 0x65, 0x6c,
  0x75, 0x3b, 0x73, 0x65, 0x71, 0x75, 0x65, 0x6e, 0x74, 0x69, 0x61, 0x6c,
  0x5f, 0x32, 0x5f, 0x31, 0x2f, 0x64, 0x65, 0x6e, 0x73, 0x65, 0x5f, 0x36,
  0x5f, 0x31, 0x2f, 0x42, 0x69, 0x61, 0x73, 0x41, 0x64, 0x64, 0x00, 0x00,
  0x02, 0x00, 0x00, 0x00, 0x01, 0x00, 0x00, 0x00, 0x10, 0x00, 0x00, 0x00,
  0x3a, 0xfe, 0xff, 0xff, 0x00, 0x00, 0x00, 0x01, 0x10, 0x00, 0x00, 0x00,
  0x10, 0x00, 0x00, 0x00, 0x09, 0x00, 0x00, 0x00, 0x2c, 0x00, 0x00, 0x00,
  0xc0, 0xfd, 0xff, 0xff, 0x1f, 0x00, 0x00, 0x00, 0x73, 0x65, 0x71, 0x75,
  0x65, 0x6e, 0x74, 0x69, 0x61, 0x6c, 0x5f, 0x32, 0x5f, 0x31, 0x2f, 0x64,
  0x65, 0x6e, 0x73, 0x65, 0x5f, 0x36, 0x5f, 0x31, 0x2f, 0x4d, 0x61, 0x74,
  0x4d, 0x75, 0x6c, 0x00, 0x02, 0x00, 0x00, 0x00, 0x10, 0x00, 0x00, 0x00,
  0x07, 0x00, 0x00, 0x00, 0x86, 0xfe, 0xff, 0xff, 0x00, 0x00, 0x00, 0x01,
  0x10, 0x00, 0x00, 0x00, 0x10, 0x00, 0x00, 0x00, 0x08, 0x00, 0x00, 0x00,
  0x3c, 0x00, 0x00, 0x00, 0x0c, 0xfe, 0xff, 0xff, 0x2f, 0x00, 0x00, 0x00,
  0x73, 0x65, 0x71, 0x75, 0x65, 0x6e, 0x74, 0x69, 0x61, 0x6c, 0x5f, 0x32,
  0x5f, 0x31, 0x2f, 0x64, 0x65, 0x6e, 0x73, 0x65, 0x5f, 0x36, 0x5f, 0x31,
  0x2f, 0x42, 0x69, 0x61, 0x73, 0x41, 0x64, 0x64, 0x2f, 0x52, 0x65, 0x61,
  0x64, 0x56, 0x61, 0x72, 0x69, 0x61, 0x62, 0x6c, 0x65, 0x4f, 0x70, 0x00,
  0x01, 0x00, 0x00, 0x00, 0x10, 0x00, 0x00, 0x00, 0xde, 0xfe, 0xff, 0xff,
  0x00, 0x00, 0x00, 0x01, 0x10, 0x00, 0x00, 0x00, 0x10, 0x00, 0x00, 0x00,
  0x07, 0x00, 0x00, 0x00, 0x1c, 0x00, 0x00, 0x00, 0x64, 0xfe, 0xff, 0xff,
  0x0f, 0x00, 0x00, 0x00, 0x61, 0x72, 0x69, 0x74, 0x68, 0x2e, 0x63, 0x6f,
  0x6e, 0x73, 0x74, 0x61, 0x6e, 0x74, 0x35, 0x00, 0x01, 0x00, 0x00, 0x00,
  0x10, 0x00, 0x00, 0x00, 0x16, 0xff, 0xff, 0xff, 0x00, 0x00, 0x00, 0x01,
  0x10, 0x00, 0x00, 0x00, 0x10, 0x00, 0x00, 0x00, 0x06, 0x00, 0x00, 0x00,
  0x1c, 0x00, 0x00, 0x00, 0x9c, 0xfe, 0xff, 0xff, 0x0f, 0x00, 0x00, 0x00,
  0x61, 0x72, 0x69, 0x74, 0x68, 0x2e, 0x63, 0x6f, 0x6e, 0x73, 0x74, 0x61,
  0x6e, 0x74, 0x34, 0x00, 0x01, 0x00, 0x00, 0x00, 0x08, 0x00, 0x00, 0x00,
  0x4e, 0xff, 0xff, 0xff, 0x00, 0x00, 0x00, 0x01, 0x10, 0x00, 0x00, 0x00,
  0x10, 0x00, 0x00, 0x00, 0x05, 0x00, 0x00, 0x00, 0x1c, 0x00, 0x00, 0x00,
  0xd4, 0xfe, 0xff, 0xff, 0x0f, 0x00, 0x00, 0x00, 0x61, 0x72, 0x69, 0x74,
  0x68, 0x2e, 0x63, 0x6f, 0x6e, 0x73, 0x74, 0x61, 0x6e, 0x74, 0x33, 0x00,
  0x01, 0x00, 0x00, 0x00, 0x03, 0x00, 0x00, 0x00, 0x86, 0xff, 0xff, 0xff,
  0x00, 0x00, 0x00, 0x01, 0x10, 0x00, 0x00, 0x00, 0x10, 0x00, 0x00, 0x00,
  0x04, 0x00, 0x00, 0x00, 0x1c, 0x00, 0x00, 0x00, 0x0c, 0xff, 0xff, 0xff,
  0x0f, 0x00, 0x00, 0x00, 0x61, 0x72, 0x69, 0x74, 0x68, 0x2e, 0x63, 0x6f,
  0x6e, 0x73, 0x74, 0x61, 0x6e, 0x74, 0x32, 0x00, 0x02, 0x00, 0x00, 0x00,
  0x10, 0x00, 0x00, 0x00, 0x10, 0x00, 0x00, 0x00, 0xc2, 0xff, 0xff, 0xff,
  0x00, 0x00, 0x00, 0x01, 0x10, 0x00, 0x00, 0x00, 0x10, 0x00, 0x00, 0x00,
  0x03, 0x00, 0x00, 0x00, 0x1c, 0x00, 0x00, 0x00, 0x48, 0xff, 0xff, 0xff,
  0x0f, 0x00, 0x00, 0x00, 0x61, 0x72, 0x69, 0x74, 0x68, 0x2e, 0x63, 0x6f,
  0x6e, 0x73, 0x74, 0x61, 0x6e, 0x74, 0x31, 0x00, 0x02, 0x00, 0x00, 0x00,
  0x08, 0x00, 0x00, 0x00, 0x10, 0x00, 0x00, 0x00, 0x00, 0x00, 0x16, 0x00,
  0x18, 0x00, 0x14, 0x00, 0x00, 0x00, 0x10, 0x00, 0x0c, 0x00, 0x08, 0x00,
  0x00, 0x00, 0x00, 0x00, 0x00, 0x00, 0x07, 0x00, 0x16, 0x00, 0x00, 0x00,
  0x00, 0x00, 0x00, 0x01, 0x10, 0x00, 0x00, 0x00, 0x10, 0x00, 0x00, 0x00,
  0x02, 0x00, 0x00, 0x00, 0x1c, 0x00, 0x00, 0x00, 0x9c, 0xff, 0xff, 0xff,
  0x0e, 0x00, 0x00, 0x00, 0x61, 0x72, 0x69, 0x74, 0x68, 0x2e, 0x63, 0x6f,
  0x6e, 0x73, 0x74, 0x61, 0x6e, 0x74, 0x00, 0x00, 0x02, 0x00, 0x00, 0x00,
  0x03, 0x00, 0x00, 0x00, 0x08, 0x00, 0x00, 0x00, 0x00, 0x00, 0x16, 0x00,
  0x1c, 0x00, 0x18, 0x00, 0x00, 0x00, 0x14, 0x00, 0x10, 0x00, 0x0c, 0x00,
  0x00, 0x00, 0x00, 0x00, 0x08, 0x00, 0x07, 0x00, 0x16, 0x00, 0x00, 0x00,
  0x00, 0x00, 0x00, 0x01, 0x14, 0x00, 0x00, 0x00, 0x20, 0x00, 0x00, 0x00,
  0x20, 0x00, 0x00, 0x00, 0x01, 0x00, 0x00, 0x00, 0x40, 0x00, 0x00, 0x00,
  0x02, 0x00, 0x00, 0x00, 0xff, 0xff, 0xff, 0xff, 0x07, 0x00, 0x00, 0x00,
  0x04, 0x00, 0x04, 0x00, 0x04, 0x00, 0x00, 0x00, 0x20, 0x00, 0x00, 0x00,
  0x73, 0x65, 0x72, 0x76, 0x69, 0x6e, 0x67, 0x5f, 0x64, 0x65, 0x66, 0x61,
  0x75, 0x6c, 0x74, 0x5f, 0x6b, 0x65, 0x72, 0x61, 0x73, 0x5f, 0x74, 0x65,
  0x6e, 0x73, 0x6f, 0x72, 0x5f, 0x38, 0x3a, 0x30, 0x00, 0x00, 0x00, 0x00,
  0x02, 0x00, 0x00, 0x00, 0x01, 0x00, 0x00, 0x00, 0x07, 0x00, 0x00, 0x00,
  0x02, 0x00, 0x00, 0x00, 0x20, 0x00, 0x00, 0x00, 0x04, 0x00, 0x00, 0x00,
  0xf4, 0xff, 0xff, 0xff, 0x19, 0x00, 0x00, 0x00, 0x00, 0x00, 0x00, 0x19,
  0x0c, 0x00, 0x0c, 0x00, 0x0b, 0x00, 0x00, 0x00, 0x00, 0x00, 0x04, 0x00,
  0x0c, 0x00, 0x00, 0x00, 0x09, 0x00, 0x00, 0x00, 0x00, 0x00, 0x00, 0x09
};
unsigned int model_tflite_len = 4752;
